memory_initialization_radix=16;
memory_initialization_vector=
0000000000000001,
0000000000010000,
0000000100000000,
0001000000000000,
0000000000000002,
0000000000020000,
0000000200000000,
0002000000000000,
0000000000000000,
0000000000000000,
0000000000000000,
0000000000000000,
0000000000000000,
0000000000000000,
0000000000000000,
0000000000000000;