memory_initialization_radix=16;
memory_initialization_vector=
0123456789ABCDEF,
FEDCBA9876543210,
0000000000000001,
00000000000000A5,
1111222233334444,
DEADBEEFCAFEBABE,
A5A5A5A5A5A5A5A5,
5A5A5A5A5A5A5A5A,
0000FFFF0000FFFF,
FFFF0000FFFF0000,
13579BDF2468ACE0,
0F0F0F0F0F0F0F0F,
F0F0F0F0F0F0F0F0,
1234567890ABCDEF,
C001D00DC0FFEE00,
0000000000000000;